e2
00
ff
0b
31
0a
01
07
06
f7
12
01
fc
01
0c
03
fe
00
fd
f5
f8
0f
0b
ea
04
fc
fb
f7
f9
fd
05
fb
1a
00
fc
11
c8
05
11
fb
03
04
0c
f4
02
04
07
06
17
00
fa
10
58
f9
fa
45
f0
f2
f2
f9
ec
06
11
02
f1
00
f5
f0
0b
05
f0
ea
ff
1e
e8
f5
ee
03
10
fb
08
00
f2
07
da
f6
f3
f8
0d
eb
cd
f1
fb
09
12
07
20
00
ff
09
14
07
0d
fc
f6
fd
17
04
ee
02
0c
07
fe
00
f8
03
ec
16
00
f1
00
10
fe
01
f1
02
09
fe
ea
00
f7
0c
ed
06
f4
07
06
f6
e7
fc
f9
03
0a
fb
ce
00
fb
fc
04
09
1c
25
f8
e9
b8
fa
09
09
ff
f8
e8
00
00
e4
04
f7
25
e7
00
2c
cb
f8
01
ff
f6
f8
25
00
fb
07
ea
f6
27
01
09
f2
01
f6
06
03
fe
09
10
00
f7
e7
f3
ce
f7
4d
e1
e9
7f
01
0f
14
fd
fc
c3
00
fd
c8
08
ce
eb
c6
03
63
77
09
09
06
fb
04
fb
00
f7
e9
11
cd
f9
e8
1f
d6
43
05
0f
06
02
16
46
00
fb
03
d6
f4
f0
14
e5
e9
04
0c
08
0c
fd
01
f5
00
fd
f8
eb
fa
e4
e8
fe
30
e8
13
06
03
fa
06
e8
00
fa
02
0e
f1
e7
ff
13
d9
e2
12
0d
02
fe
0a
e6
00
02
ff
e7
13
06
ee
fe
e0
01
f0
0d
09
fb
f4
07
00
0c
f6
14
fe
0a
01
fc
16
ff
f6
fb
fb
f5
f9
23
00
0a
08
0b
fc
10
0a
01
00
1e
f8
fa
fb
fc
03
02
00
06
f2
c5
11
f7
05
e9
df
ca
fb
14
0e
f4
f4
e5
00
14
e2
12
0c
f9
e8
00
41
d2
08
05
fe
f3
01
09
00
0e
ee
2e
fb
fd
09
14
dd
13
08
03
f8
fd
0d
1d
00
04
0d
db
05
01
f0
f0
f1
f7
06
0a
04
f8
ff
05
00
0c
0f
07
08
04
04
01
22
ea
10
02
fd
f6
0a
fa
00
0c
0a
2b
fa
00
0f
0f
e8
fd
12
01
f8
fa
0b
